11000101
00111101
00000000
00001111
00000000
11101001
11001111
11100111
00111111
01100010
10100101
10111100
00000000
00000000
00000000
01000100
10101100
01000001
11011101
11101001
00100000
00000000
11101001
00001000
01000101
00000000
01011111
00000000
00000000
00000000
00100010
11111011
00000000
11010100
01010000
11001110
01011100
00100110
00000000
00000000
11110100
00000000
00000000
00101110
10111001
00000000
10111100
00000000
11001010
00000000
01000001
00001100
01001110
10101010
01111111
11000001
00000000
00011000
00111010
00000000
00100011
11111100
01010101
10101011
11000110
00111101
10110101
00000000
10101101
00010101
00000000
00111011
11100100
01011100
11111001
01000011
00100011
00000000
00000000
01000010
10111110
11011101
10101111
00101111
00000000
11100101
01000000
00000000
00000000
01001000
00000000
11100111
00001111
10111100
00010110
00010100
01111111
00000000
00000000
11001001
00000000
00000000
00011100
00000000
01111111
00000000
00000000
00000000
