11000100
01001011
00000000
00000000
00000000
11101110
11110000
11100111
00111101
01011000
10111111
10111001
00000000
00000000
00000000
01010000
10011010
00100001
11110011
11011110
00100001
00000000
00000000
00000000
00000000
00000000
01100101
00000000
00000000
00000000
00000000
00000000
11110111
11010011
01001110
11101001
01100100
00101001
00000000
00000000
00000000
00000000
00000000
00001110
10110110
00000000
11000110
00000000
11000110
00000000
00110111
00000000
00110101
11000101
01111111
11000001
00000000
00011010
00110011
00000000
00001101
00000000
01100100
10101100
11010100
00000000
10111111
00000000
10110111
00001000
00000000
00111011
11111110
01010001
00000000
00101011
00000000
00000000
00000000
00111110
00000000
11101010
10101101
00101000
00000000
11101100
00011010
00000000
00000000
01001111
00000000
11110010
00010010
11010100
00000000
00001111
01111111
00001111
00000000
00000000
11000110
00000000
00000000
00000000
01111111
00000000
00000000
00000000
