10100000
00101100
00000000
00010111
00000000
11000111
11000110
11001011
00110010
01011100
10000101
10100010
11110010
01000100
00001011
01100000
10110000
01000111
11011111
11101101
00101011
00000000
11000001
00010001
01010011
01000001
01110110
00010000
11011100
00000000
00100110
00000010
00000000
11001011
01011101
11010111
01011000
00111100
00101001
00010010
11110001
11101000
11001111
00100110
11010001
11100011
10111100
00011000
11001111
00000011
00111100
00000101
00010000
10000101
01111111
11001101
11110010
00111110
01011010
00011110
00010110
00000000
01010001
11101110
11001101
01010100
10111010
00010101
10100011
00000000
00000111
01001001
11110000
01001011
11001000
01000100
01100010
00000000
11011000
00111100
11100010
11100001
10011101
00110111
11111011
11100000
01010110
11100110
00000000
01011000
11001010
11101001
00011001
10101100
00011011
00100010
01111111
00001101
11111000
10111001
10111000
11000010
00011101
11101110
01111111
00110100
00011011
10101001
