10110100
00000011
01001001
01101001
10001011
11000000
01100101
11101011
10010001
10011011
00110010
00101001
01010000
00000000
01010001
11000101
11001111
01001101
00000000
10100100
01001000
10100011
01010100
10111111
01100101
00000000
11110011
01111111
11000010
10110000
00111101
00111001
00100100
11001111
00000000
00000000
10110111
11010001
01101100
10111001
01110101
00000000
00100011
10001010
00011110
10101110
11110111
01001000
00001011
01010101
00010001
11000100
10101100
00000000
10110101
01101100
01010110
01011011
10010101
00111110
10010011
00000100
10101110
11010010
00000000
00111010
11000101
10100000
00010011
01001000
01000011
10010101
00111001
00110101
00000000
11110011
11101101
00111011
10100101
10111101
01001100
01001111
10101010
00000000
00010110
11111111
10111001
00000000
00001100
00101100
11100000
00111010
00110000
00111011
00101011
10000101
11011110
10000001
00000000
00000000
00001000
10011101
01000000
11100110
00000000
01001001
10101001
11110100
10101110
10101111
01000000
01101001
01111111
00110100
00000101
10001000
00001101
00001111
00111000
10000001
01111111
11100010
10100111
00111000
00010011
00010010
