11010110
11110011
01010001
10101101
10101000
11010111
01010001
01011110
00101010
10111111
01001000
00011011
01001100
00100101
00011001
00110110
00011011
10011011
11110110
01100000
10101101
10100010
10011001
01000000
01000110
00011011
10001000
10101101
11010100
00110010
00010010
10001001
00010111
10100000
11101101
11000011
01010010
11011011
00100110
11110100
11000000
01001101
01001111
11110001
10111001
00110100
00000000
11011011
01010010
00101110
00101101
01100011
01001011
01010110
10000001
10111110
01000101
11000100
01000110
00110100
00101100
00100101
10010100
11001111
10011100
00000001
00001000
00000000
01100101
11010011
00000000
00000011
11100100
10100101
00101011
01110010
00111001
11000010
01001001
10000101
11011011
00100110
10111010
11101011
11000110
01001000
01010101
11000100
11100111
00101010
00000001
11001111
01010011
11001010
11100010
01111001
01101101
00001011
01000001
01100111
11011110
00010100
00100011
01111011
10011111
00111100
11100011
11010111
11100001
10100100
11011011
01111111
