11011100
00100001
00100100
01010000
10001111
11001100
01100101
11111100
10010100
10011001
01001110
00000111
00111110
00010001
01010011
11110110
11110000
00111110
00010000
10110111
01001111
10101100
01011100
10111111
01110110
00000100
11110111
01100110
11000000
10011010
01001110
01100100
01001000
11001000
11111010
11110000
10010101
11100001
01011101
11000000
01010010
00011110
01001100
10000010
01000100
10010101
11111001
01011010
00110011
01011010
01001100
11101011
10101101
00010111
10110001
01110100
00111101
01001011
10101101
00110011
11010110
11010101
10001111
11001001
00010001
01010010
11000011
10011111
00100101
00110100
01000110
10000001
01100001
01011000
00100100
00001001
11110010
00011010
10101010
11011001
00110000
01111000
11000100
11100110
01000001
11011001
10110101
00101011
00111100
01010110
11100101
00110001
00110111
01001011
00011101
10101011
11000101
10011000
00001001
00011010
00100000
10011101
01000001
11100110
11100010
00111111
10001011
11110000
11001101
10001000
01111111
01111001
11110001
01000011
00100010
00010111
01010110
01111111
00011111
10000001
01111111
10110001
10001110
01010101
10010001
10110011
