11011100
00100001
00100101
01001110
10010001
11001111
01100101
11111011
10010111
10011010
01001010
00000101
00111110
00001110
01010101
11110100
11110000
00111100
00001110
10111001
01001111
10101111
01011100
10111110
01110110
00000011
11111001
01101000
10111110
10011010
01001110
01100100
01001001
11000101
11110111
11101111
10010110
11100001
01011001
11000001
01010001
00011110
01001101
10000101
01000010
10010111
11111001
01011100
00110010
01011010
01001111
11101100
10101101
00010111
10110010
01110011
00111101
01001010
10101111
00110101
11011001
11011001
10010101
11001000
00010000
01010001
11000011
10100001
00100000
00110011
01000110
10000001
01011110
01010111
00100011
00001000
11110010
00011010
10101011
11011011
00110001
01110110
11000010
11100100
01000001
11011011
10110111
00101001
00111011
01010110
11100101
00110100
00110111
01001000
00011011
10101100
11001010
10011100
00001011
00011001
00011110
10011100
00111111
11100100
11100001
00111101
10001101
11101110
11001100
10001010
01111111
01111010
11111010
01001111
00010010
00010010
01001110
01111111
00011100
10000001
01111111
10101110
10000110
01100010
10010000
10101011
